// Auto-generated from baseline_dense.tflite
const unsigned char model_tflite[] = {28,0,0,0,84,70,76,51,20,0,32,0,28,0,24,0,20,0,16,0,12,0,0,0,8,0,4,0,20,0,0,0,28,0,0,0,140,0,0,0,228,0,0,0,224,3,0,0,240,3,0,0,44,8,0,0,3,0,0,0,1,0,0,0,4,0,0,0,214,251,255,255,12,0,0,0,28,0,0,0,60,0,0,0,15,0,0,0,115,101,114,118,105,110,103,95,100,101,102,97,117,108,116,0,1,0,0,0,4,0,0,0,144,255,255,255,7,0,0,0,4,0,0,0,8,0,0,0,111,117,116,112,117,116,95,48,0,0,0,0,1,0,0,0,4,0,0,0,226,252,255,255,4,0,0,0,13,0,0,0,105,110,112,117,116,95,108,97,121,101,114,95,51,0,0,0,2,0,0,0,52,0,0,0,4,0,0,0,220,255,255,255,10,0,0,0,4,0,0,0,19,0,0,0,67,79,78,86,69,82,83,73,79,78,95,77,69,84,65,68,65,84,65,0,8,0,12,0,8,0,4,0,8,0,0,0,9,0,0,0,4,0,0,0,19,0,0,0,109,105,110,95,114,117,110,116,105,109,101,95,118,101,114,115,105,111,110,0,11,0,0,0,248,2,0,0,240,2,0,0,160,2,0,0,132,2,0,0,52,2,0,0,164,0,0,0,156,0,0,0,148,0,0,0,140,0,0,0,108,0,0,0,4,0,0,0,138,253,255,255,4,0,0,0,88,0,0,0,12,0,0,0,8,0,14,0,8,0,4,0,8,0,0,0,16,0,0,0,40,0,0,0,0,0,6,0,8,0,4,0,6,0,0,0,4,0,0,0,1,0,0,0,234,3,0,0,0,0,10,0,16,0,12,0,8,0,4,0,10,0,0,0,1,0,0,0,2,0,0,0,4,0,0,0,6,0,0,0,50,46,49,54,46,50,0,0,238,253,255,255,4,0,0,0,16,0,0,0,49,46,49,52,46,48,0,0,0,0,0,0,0,0,0,0,148,249,255,255,152,249,255,255,156,249,255,255,22,254,255,255,4,0,0,0,128,1,0,0,243,58,157,62,168,141,33,189,174,40,3,64,112,212,71,189,211,155,48,62,144,10,189,189,145,38,234,60,38,64,189,189,2,124,209,63,131,21,184,60,123,15,37,62,75,39,60,60,192,244,171,61,122,155,53,62,157,141,165,63,26,99,186,61,170,32,192,60,72,237,25,62,6,155,106,62,64,20,145,61,59,55,208,63,147,70,151,61,117,25,237,59,29,42,141,60,189,218,74,61,213,112,241,62,244,141,238,63,154,25,9,61,172,53,144,189,17,174,62,61,41,66,181,62,125,224,226,190,211,149,2,62,8,255,201,61,139,27,122,190,55,136,7,62,213,118,72,63,133,154,28,63,32,89,99,63,12,215,131,62,207,71,97,190,162,191,143,62,111,52,232,62,190,110,49,63,171,170,202,63,232,91,206,61,163,139,15,62,97,90,46,61,7,197,193,189,77,150,146,190,205,12,249,62,145,54,210,190,132,32,164,190,35,135,246,190,97,138,19,63,37,83,39,63,54,55,167,63,245,197,68,62,94,58,45,189,100,235,39,187,30,218,226,190,32,52,129,188,158,81,189,190,236,155,123,190,84,187,145,190,60,39,179,190,39,6,79,62,66,199,249,62,252,207,231,190,80,194,20,63,248,56,76,62,68,255,167,62,216,12,185,59,163,18,173,190,44,89,223,190,173,213,109,190,192,181,151,62,50,242,2,62,140,93,8,191,221,146,158,190,5,107,19,191,87,247,132,62,108,163,147,62,116,159,231,62,96,230,7,189,66,50,223,190,248,54,20,190,48,242,25,189,63,93,200,190,220,28,240,190,19,188,29,62,66,150,70,63,177,174,144,191,3,236,124,63,35,99,175,62,20,171,73,63,162,255,255,255,4,0,0,0,64,0,0,0,111,252,71,191,167,146,35,191,93,134,35,191,114,125,49,191,164,218,71,191,134,120,139,188,152,86,60,191,98,48,125,191,82,206,134,188,184,253,87,191,0,0,0,0,83,14,165,63,110,155,58,190,236,198,214,60,0,0,0,0,81,18,200,63,238,255,255,255,4,0,0,0,4,0,0,0,231,175,122,191,0,0,6,0,8,0,4,0,6,0,0,0,4,0,0,0,64,0,0,0,109,68,27,64,178,95,186,63,107,249,170,63,147,126,64,64,177,73,206,63,253,225,28,62,92,245,173,63,110,159,229,63,62,11,177,62,68,203,239,63,114,75,197,190,150,81,54,191,121,50,172,62,167,135,3,190,177,243,101,190,100,135,130,191,220,251,255,255,224,251,255,255,15,0,0,0,77,76,73,82,32,67,111,110,118,101,114,116,101,100,46,0,1,0,0,0,20,0,0,0,0,0,14,0,24,0,20,0,16,0,12,0,8,0,4,0,14,0,0,0,20,0,0,0,28,0,0,0,208,0,0,0,212,0,0,0,216,0,0,0,4,0,0,0,109,97,105,110,0,0,0,0,3,0,0,0,120,0,0,0,52,0,0,0,16,0,0,0,0,0,10,0,16,0,12,0,8,0,4,0,10,0,0,0,12,0,0,0,16,0,0,0,1,0,0,0,1,0,0,0,7,0,0,0,1,0,0,0,6,0,0,0,206,255,255,255,16,0,0,0,0,0,0,8,12,0,0,0,16,0,0,0,132,252,255,255,1,0,0,0,6,0,0,0,3,0,0,0,5,0,0,0,1,0,0,0,2,0,0,0,0,0,14,0,22,0,0,0,16,0,12,0,11,0,4,0,14,0,0,0,24,0,0,0,0,0,0,8,24,0,0,0,28,0,0,0,0,0,6,0,8,0,7,0,6,0,0,0,0,0,0,1,1,0,0,0,5,0,0,0,3,0,0,0,0,0,0,0,4,0,0,0,3,0,0,0,1,0,0,0,7,0,0,0,1,0,0,0,0,0,0,0,8,0,0,0,216,2,0,0,128,2,0,0,44,2,0,0,208,1,0,0,128,1,0,0,224,0,0,0,96,0,0,0,4,0,0,0,94,253,255,255,0,0,0,1,20,0,0,0,28,0,0,0,28,0,0,0,8,0,0,0,52,0,0,0,2,0,0,0,255,255,255,255,1,0,0,0,72,253,255,255,27,0,0,0,83,116,97,116,101,102,117,108,80,97,114,116,105,116,105,111,110,101,100,67,97,108,108,95,49,58,48,0,2,0,0,0,1,0,0,0,1,0,0,0,182,253,255,255,0,0,0,1,20,0,0,0,28,0,0,0,28,0,0,0,7,0,0,0,88,0,0,0,2,0,0,0,255,255,255,255,1,0,0,0,160,253,255,255,60,0,0,0,115,101,113,117,101,110,116,105,97,108,95,51,95,49,47,100,101,110,115,101,95,55,95,49,47,77,97,116,77,117,108,59,115,101,113,117,101,110,116,105,97,108,95,51,95,49,47,100,101,110,115,101,95,55,95,49,47,65,100,100,0,0,0,0,2,0,0,0,1,0,0,0,1,0,0,0,50,254,255,255,0,0,0,1,20,0,0,0,28,0,0,0,28,0,0,0,6,0,0,0,120,0,0,0,2,0,0,0,255,255,255,255,16,0,0,0,28,254,255,255,94,0,0,0,115,101,113,117,101,110,116,105,97,108,95,51,95,49,47,100,101,110,115,101,95,54,95,49,47,77,97,116,77,117,108,59,115,101,113,117,101,110,116,105,97,108,95,51,95,49,47,100,101,110,115,101,95,54,95,49,47,82,101,108,117,59,115,101,113,117,101,110,116,105,97,108,95,51,95,49,47,100,101,110,115,101,95,54,95,49,47,66,105,97,115,65,100,100,0,0,2,0,0,0,1,0,0,0,16,0,0,0,34,255,255,255,0,0,0,1,16,0,0,0,16,0,0,0,5,0,0,0,44,0,0,0,168,254,255,255,31,0,0,0,115,101,113,117,101,110,116,105,97,108,95,51,95,49,47,100,101,110,115,101,95,54,95,49,47,77,97,116,77,117,108,0,2,0,0,0,16,0,0,0,6,0,0,0,110,255,255,255,0,0,0,1,16,0,0,0,16,0,0,0,4,0,0,0,60,0,0,0,244,254,255,255,47,0,0,0,115,101,113,117,101,110,116,105,97,108,95,51,95,49,47,100,101,110,115,101,95,54,95,49,47,66,105,97,115,65,100,100,47,82,101,97,100,86,97,114,105,97,98,108,101,79,112,0,1,0,0,0,16,0,0,0,198,255,255,255,0,0,0,1,16,0,0,0,16,0,0,0,3,0,0,0,28,0,0,0,76,255,255,255,15,0,0,0,97,114,105,116,104,46,99,111,110,115,116,97,110,116,49,0,1,0,0,0,1,0,0,0,0,0,22,0,24,0,20,0,0,0,16,0,12,0,8,0,0,0,0,0,0,0,7,0,22,0,0,0,0,0,0,1,16,0,0,0,16,0,0,0,2,0,0,0,28,0,0,0,156,255,255,255,14,0,0,0,97,114,105,116,104,46,99,111,110,115,116,97,110,116,0,0,2,0,0,0,1,0,0,0,16,0,0,0,0,0,22,0,28,0,24,0,0,0,20,0,16,0,12,0,0,0,0,0,8,0,7,0,22,0,0,0,0,0,0,1,20,0,0,0,32,0,0,0,32,0,0,0,1,0,0,0,60,0,0,0,2,0,0,0,255,255,255,255,6,0,0,0,4,0,4,0,4,0,0,0,31,0,0,0,115,101,114,118,105,110,103,95,100,101,102,97,117,108,116,95,105,110,112,117,116,95,108,97,121,101,114,95,51,58,48,0,2,0,0,0,1,0,0,0,6,0,0,0,2,0,0,0,32,0,0,0,4,0,0,0,244,255,255,255,14,0,0,0,0,0,0,14,12,0,12,0,11,0,0,0,0,0,4,0,12,0,0,0,9,0,0,0,0,0,0,9};
const int model_tflite_len = 2192;
